#include <cstdint>
#include <cstddef>
#include "model_data.h"

extern const unsigned int g_model_len = 3424;
alignas(16) extern const unsigned char g_model[] = {
0x1c, 0x00, 0x00, 0x00, 0x54, 0x46, 0x4c, 0x33, 0x14, 0x00, 0x20, 0x00, 
0x1c, 0x00, 0x18, 0x00, 0x14, 0x00, 0x10, 0x00, 0x0c, 0x00, 0x00, 0x00, 
0x08, 0x00, 0x04, 0x00, 0x14, 0x00, 0x00, 0x00, 0x1c, 0x00, 0x00, 0x00, 
0x98, 0x00, 0x00, 0x00, 0xf0, 0x00, 0x00, 0x00, 0x18, 0x08, 0x00, 0x00, 
0x28, 0x08, 0x00, 0x00, 0x0c, 0x0d, 0x00, 0x00, 0x03, 0x00, 0x00, 0x00, 
0x01, 0x00, 0x00, 0x00, 0x10, 0x00, 0x00, 0x00, 0x00, 0x00, 0x0a, 0x00, 
0x10, 0x00, 0x0c, 0x00, 0x08, 0x00, 0x04, 0x00, 0x0a, 0x00, 0x00, 0x00, 
0x0c, 0x00, 0x00, 0x00, 0x1c, 0x00, 0x00, 0x00, 0x3c, 0x00, 0x00, 0x00, 
0x0f, 0x00, 0x00, 0x00, 0x73, 0x65, 0x72, 0x76, 0x69, 0x6e, 0x67, 0x5f, 
0x64, 0x65, 0x66, 0x61, 0x75, 0x6c, 0x74, 0x00, 0x01, 0x00, 0x00, 0x00, 
0x04, 0x00, 0x00, 0x00, 0x90, 0xff, 0xff, 0xff, 0x09, 0x00, 0x00, 0x00, 
0x04, 0x00, 0x00, 0x00, 0x08, 0x00, 0x00, 0x00, 0x6f, 0x75, 0x74, 0x70, 
0x75, 0x74, 0x5f, 0x30, 0x00, 0x00, 0x00, 0x00, 0x01, 0x00, 0x00, 0x00, 
0x04, 0x00, 0x00, 0x00, 0xf6, 0xf8, 0xff, 0xff, 0x04, 0x00, 0x00, 0x00, 
0x0e, 0x00, 0x00, 0x00, 0x6b, 0x65, 0x72, 0x61, 0x73, 0x5f, 0x74, 0x65, 
0x6e, 0x73, 0x6f, 0x72, 0x5f, 0x38, 0x00, 0x00, 0x02, 0x00, 0x00, 0x00, 
0x34, 0x00, 0x00, 0x00, 0x04, 0x00, 0x00, 0x00, 0xdc, 0xff, 0xff, 0xff, 
0x0c, 0x00, 0x00, 0x00, 0x04, 0x00, 0x00, 0x00, 0x13, 0x00, 0x00, 0x00, 
0x43, 0x4f, 0x4e, 0x56, 0x45, 0x52, 0x53, 0x49, 0x4f, 0x4e, 0x5f, 0x4d, 
0x45, 0x54, 0x41, 0x44, 0x41, 0x54, 0x41, 0x00, 0x08, 0x00, 0x0c, 0x00, 
0x08, 0x00, 0x04, 0x00, 0x08, 0x00, 0x00, 0x00, 0x0b, 0x00, 0x00, 0x00, 
0x04, 0x00, 0x00, 0x00, 0x13, 0x00, 0x00, 0x00, 0x6d, 0x69, 0x6e, 0x5f, 
0x72, 0x75, 0x6e, 0x74, 0x69, 0x6d, 0x65, 0x5f, 0x76, 0x65, 0x72, 0x73, 
0x69, 0x6f, 0x6e, 0x00, 0x0d, 0x00, 0x00, 0x00, 0x24, 0x07, 0x00, 0x00, 
0x1c, 0x07, 0x00, 0x00, 0x8c, 0x06, 0x00, 0x00, 0x74, 0x02, 0x00, 0x00, 
0x5c, 0x02, 0x00, 0x00, 0x0c, 0x02, 0x00, 0x00, 0xbc, 0x01, 0x00, 0x00, 
0xac, 0x00, 0x00, 0x00, 0xa4, 0x00, 0x00, 0x00, 0x9c, 0x00, 0x00, 0x00, 
0x94, 0x00, 0x00, 0x00, 0x74, 0x00, 0x00, 0x00, 0x04, 0x00, 0x00, 0x00, 
0xa6, 0xf9, 0xff, 0xff, 0x04, 0x00, 0x00, 0x00, 0x60, 0x00, 0x00, 0x00, 
0x10, 0x00, 0x00, 0x00, 0x00, 0x00, 0x00, 0x00, 0x08, 0x00, 0x0e, 0x00, 
0x08, 0x00, 0x04, 0x00, 0x08, 0x00, 0x00, 0x00, 0x10, 0x00, 0x00, 0x00, 
0x24, 0x00, 0x00, 0x00, 0x00, 0x00, 0x06, 0x00, 0x08, 0x00, 0x04, 0x00, 
0x06, 0x00, 0x00, 0x00, 0x04, 0x00, 0x00, 0x00, 0x00, 0x00, 0x00, 0x00, 
0x0c, 0x00, 0x18, 0x00, 0x14, 0x00, 0x10, 0x00, 0x0c, 0x00, 0x04, 0x00, 
0x0c, 0x00, 0x00, 0x00, 0x5d, 0xe5, 0x46, 0x46, 0x5c, 0x5f, 0x6e, 0x58, 
0x02, 0x00, 0x00, 0x00, 0x02, 0x00, 0x00, 0x00, 0x04, 0x00, 0x00, 0x00, 
0x06, 0x00, 0x00, 0x00, 0x32, 0x2e, 0x31, 0x39, 0x2e, 0x30, 0x00, 0x00, 
0x12, 0xfa, 0xff, 0xff, 0x04, 0x00, 0x00, 0x00, 0x10, 0x00, 0x00, 0x00, 
0x31, 0x2e, 0x35, 0x2e, 0x30, 0x00, 0x00, 0x00, 0x00, 0x00, 0x00, 0x00, 
0x00, 0x00, 0x00, 0x00, 0xd4, 0xf4, 0xff, 0xff, 0xd8, 0xf4, 0xff, 0xff, 
0xdc, 0xf4, 0xff, 0xff, 0x3a, 0xfa, 0xff, 0xff, 0x04, 0x00, 0x00, 0x00, 
0x00, 0x01, 0x00, 0x00, 0xc2, 0x7d, 0x36, 0x3f, 0xb2, 0x34, 0xf6, 0xbe, 
0xcc, 0xb5, 0xdb, 0x3e, 0xd9, 0x08, 0xab, 0xbe, 0x1e, 0x6a, 0x84, 0x3d, 
0xe5, 0x12, 0xfb, 0x3e, 0xb0, 0xa7, 0x4f, 0x3f, 0x65, 0x77, 0x48, 0x3e, 
0x82, 0x92, 0x95, 0xbe, 0xc4, 0x81, 0xe6, 0x3e, 0x67, 0x03, 0xbb, 0xbf, 
0x7d, 0xf4, 0x46, 0x3f, 0xa5, 0x20, 0xd2, 0x3e, 0x09, 0x71, 0xa3, 0xbd, 
0x86, 0xe9, 0x14, 0xbd, 0xda, 0x6c, 0x63, 0xbf, 0x28, 0xe8, 0xe9, 0x3e, 
0x16, 0x79, 0xc4, 0x3e, 0x89, 0x57, 0x30, 0xbe, 0x33, 0x34, 0xd1, 0x3e, 
0x14, 0x7d, 0x9c, 0x3e, 0xdf, 0x4f, 0x05, 0xbf, 0xd0, 0x0f, 0x90, 0x3f, 
0x12, 0x0c, 0x11, 0x3d, 0xaa, 0xea, 0x2b, 0xbf, 0x79, 0x17, 0x1d, 0xbe, 
0x1b, 0x19, 0xef, 0x3e, 0x1f, 0x40, 0x47, 0xbf, 0xf8, 0x85, 0xbb, 0xbe, 
0x40, 0x0a, 0x2c, 0x3c, 0x51, 0x7d, 0x96, 0xbe, 0xe0, 0xf6, 0xa0, 0xbd, 
0x21, 0xf6, 0x71, 0x3e, 0x2c, 0x94, 0x1a, 0xbf, 0x3c, 0x34, 0x08, 0x3e, 
0x2c, 0xf2, 0x2c, 0x3f, 0x1e, 0xd4, 0x28, 0x3f, 0xe8, 0x25, 0xd4, 0xbe, 
0x68, 0x86, 0x28, 0x3f, 0x5a, 0x11, 0x18, 0xbf, 0xf4, 0x30, 0x37, 0xbe, 
0xf4, 0xcf, 0x39, 0x3f, 0x35, 0x28, 0x05, 0x3f, 0x3a, 0xdf, 0x46, 0x3d, 
0x6e, 0xa7, 0x3c, 0xbf, 0xf6, 0xf1, 0x97, 0xbf, 0xa9, 0x43, 0x0d, 0x3f, 
0xac, 0x50, 0xe0, 0x3e, 0xa0, 0x7e, 0x01, 0xbf, 0x80, 0xff, 0x80, 0x3b, 
0x70, 0x62, 0xc3, 0xbd, 0x62, 0x8b, 0x68, 0xbe, 0xd0, 0x21, 0x67, 0x3e, 
0x1b, 0x83, 0x3f, 0xbe, 0xbe, 0x5c, 0x41, 0x3e, 0xf1, 0x6a, 0x3c, 0x3f, 
0x5b, 0x8b, 0xe5, 0xbe, 0xa1, 0x91, 0x7b, 0xbd, 0x6e, 0x08, 0x08, 0xbf, 
0xc7, 0x2a, 0x15, 0x3e, 0xae, 0x34, 0x1e, 0x3f, 0x9a, 0x7c, 0xcc, 0x3e, 
0x88, 0xaf, 0x8d, 0xbf, 0x41, 0x11, 0x4a, 0xbf, 0x46, 0xfb, 0xff, 0xff, 
0x04, 0x00, 0x00, 0x00, 0x40, 0x00, 0x00, 0x00, 0x97, 0xb4, 0x11, 0xbd, 
0xc8, 0x36, 0x7f, 0xbd, 0x6e, 0xae, 0x27, 0x3c, 0xb3, 0xb6, 0x58, 0x3d, 
0x5b, 0x61, 0x4a, 0x3c, 0x1f, 0x93, 0xcb, 0x3d, 0xe4, 0xab, 0x14, 0x3e, 
0x00, 0x00, 0x00, 0x00, 0x1f, 0x08, 0x0f, 0xbd, 0x84, 0x42, 0x48, 0xbd, 
0x8c, 0xb6, 0xbb, 0x3c, 0x49, 0x4a, 0xd0, 0x3d, 0x00, 0x00, 0x00, 0x00, 
0xc4, 0xe1, 0x4d, 0x3d, 0x76, 0x56, 0x75, 0xbc, 0x2b, 0xf2, 0x1e, 0xbe, 
0x92, 0xfb, 0xff, 0xff, 0x04, 0x00, 0x00, 0x00, 0x40, 0x00, 0x00, 0x00, 
0x00, 0x00, 0x00, 0x00, 0x8c, 0x9a, 0x9f, 0x3d, 0xb6, 0xf3, 0xe9, 0x3c, 
0xb5, 0x9f, 0x45, 0x3d, 0x60, 0x58, 0xb1, 0x3d, 0x9e, 0xaf, 0xd2, 0x3d, 
0xef, 0xb6, 0x93, 0xbd, 0x00, 0x00, 0x00, 0x00, 0xdb, 0x1c, 0xbc, 0x3d, 
0xac, 0x18, 0xff, 0xbc, 0xa9, 0x92, 0x29, 0x3e, 0xcf, 0xac, 0xde, 0x3d, 
0x0a, 0x44, 0x4c, 0x3e, 0x75, 0x41, 0xa8, 0x3d, 0x8b, 0xed, 0x64, 0xbc, 
0x55, 0x3e, 0x2e, 0x3c, 0xde, 0xfb, 0xff, 0xff, 0x04, 0x00, 0x00, 0x00, 
0x08, 0x00, 0x00, 0x00, 0x5c, 0x2b, 0xc4, 0x3d, 0x63, 0xd7, 0xeb, 0x3d, 
0xf2, 0xfb, 0xff, 0xff, 0x04, 0x00, 0x00, 0x00, 0x00, 0x04, 0x00, 0x00, 
0x00, 0x11, 0x45, 0xbc, 0x29, 0x3f, 0x5b, 0xbe, 0x8a, 0x2b, 0x1d, 0xbe, 
0xea, 0x18, 0x70, 0x3e, 0xd0, 0x98, 0xe6, 0x3c, 0xa6, 0x45, 0x87, 0xbe, 
0xb4, 0x54, 0xec, 0x3d, 0xe0, 0x43, 0x78, 0xbd, 0x43, 0x1d, 0xb9, 0xbe, 
0x98, 0xee, 0x39, 0x3d, 0x6e, 0x2a, 0x98, 0xbe, 0x75, 0x11, 0xc8, 0x3e, 
0x34, 0x8c, 0xf6, 0xbd, 0xac, 0x58, 0xba, 0xbe, 0x4c, 0x53, 0xb6, 0x3d, 
0xc0, 0x0b, 0x08, 0xbe, 0x57, 0x4b, 0x39, 0x3f, 0x16, 0x8f, 0x3a, 0xbd, 
0x0d, 0x75, 0xca, 0xbe, 0xd4, 0x08, 0x0e, 0x3f, 0xe1, 0x8d, 0x89, 0x3e, 
0xdd, 0xe6, 0x94, 0x3e, 0xef, 0xba, 0x00, 0x3f, 0x37, 0xc3, 0xd3, 0xbe, 
0xe2, 0xf0, 0x45, 0x3e, 0x1b, 0x58, 0x54, 0xbf, 0x4a, 0x88, 0x8a, 0x3e, 
0x0e, 0x54, 0xbe, 0x3d, 0xfd, 0x40, 0xc1, 0x3e, 0x2e, 0x57, 0xf5, 0xbd, 
0xbd, 0x9f, 0x7b, 0xbe, 0x35, 0xf4, 0x96, 0x3e, 0xc7, 0xeb, 0xba, 0x3e, 
0xa2, 0x1e, 0x0c, 0xbd, 0xfd, 0x08, 0x41, 0xbf, 0x14, 0x3c, 0x39, 0x3f, 
0x22, 0x51, 0x16, 0xbe, 0x3b, 0xd6, 0xa4, 0xbc, 0xb3, 0xab, 0xe7, 0x3e, 
0x9c, 0xfb, 0xab, 0x3d, 0xc7, 0xcc, 0xe6, 0x3e, 0xe5, 0x3b, 0x65, 0xbf, 
0x0f, 0xd1, 0x35, 0x3e, 0x4a, 0x91, 0x7e, 0x3f, 0x6b, 0x01, 0x90, 0x3e, 
0xb3, 0xf1, 0xd2, 0xbd, 0x41, 0x0d, 0x7c, 0x3d, 0x74, 0x68, 0xf6, 0xbe, 
0xc6, 0xb4, 0xdb, 0x3e, 0x6b, 0x16, 0x3d, 0x3c, 0x1e, 0xc7, 0xa3, 0x3c, 
0xb8, 0x24, 0x49, 0x3b, 0x62, 0x19, 0xa0, 0xbd, 0x4e, 0x31, 0x1c, 0x3f, 
0xcb, 0x3a, 0x5e, 0x3e, 0x6a, 0xeb, 0x5c, 0x3e, 0x2e, 0x06, 0xf2, 0x3d, 
0x94, 0x42, 0x8e, 0xbd, 0x5f, 0xb3, 0x81, 0xbd, 0x55, 0x69, 0xee, 0xbe, 
0xac, 0x1b, 0xf9, 0x3d, 0x06, 0x8b, 0xda, 0x3e, 0x98, 0xec, 0xb1, 0xbe, 
0x4b, 0x0e, 0x41, 0x3e, 0xa9, 0xd0, 0x4f, 0x3f, 0xcb, 0xa0, 0x90, 0x3e, 
0xc4, 0x50, 0x0e, 0xbf, 0xf8, 0x57, 0x1b, 0x3f, 0xea, 0x3c, 0xb3, 0x3e, 
0xb1, 0x9e, 0xce, 0xbc, 0xc8, 0xfb, 0xed, 0x3e, 0xe2, 0x22, 0x41, 0x3e, 
0xa3, 0x32, 0x14, 0xbe, 0xe1, 0xb0, 0x56, 0xbf, 0xdf, 0x35, 0x49, 0xbd, 
0xfe, 0x18, 0x52, 0x3f, 0x9b, 0x7a, 0xa2, 0x3e, 0x33, 0xa6, 0xad, 0x3c, 
0x2d, 0x6f, 0x09, 0xbe, 0xfa, 0xec, 0x21, 0xbf, 0xf6, 0xc1, 0xb4, 0x3e, 
0x9e, 0x2a, 0x62, 0x3e, 0x78, 0x26, 0x26, 0xbf, 0xd3, 0x67, 0x81, 0xbd, 
0x62, 0xe7, 0x89, 0x3d, 0xc1, 0xbe, 0xe3, 0x3e, 0xf9, 0xbc, 0x65, 0x3e, 
0x6c, 0x2e, 0x56, 0xbe, 0x93, 0x23, 0x52, 0xbf, 0x99, 0xec, 0x85, 0xbe, 
0x2d, 0xee, 0x2f, 0xbc, 0xce, 0x01, 0x8f, 0xbf, 0xba, 0xdc, 0xd9, 0xbe, 
0x08, 0x82, 0x6e, 0xbd, 0x90, 0xaa, 0x85, 0xbd, 0xa7, 0x0d, 0x5d, 0xbc, 
0x23, 0xbb, 0x12, 0x3f, 0xb5, 0xbc, 0xd7, 0x3e, 0x6e, 0xab, 0x76, 0xbf, 
0x31, 0x13, 0x2d, 0xbf, 0x1f, 0xca, 0x0c, 0xbf, 0xa1, 0x9d, 0x84, 0x3e, 
0x8e, 0x5f, 0x1e, 0x3f, 0x94, 0xa4, 0xfd, 0xbd, 0xc1, 0xe1, 0xbc, 0xbb, 
0x71, 0x2a, 0x69, 0xbe, 0xff, 0x29, 0xe1, 0x3e, 0xa8, 0x38, 0x8d, 0x3f, 
0x83, 0x5a, 0x96, 0xbe, 0x22, 0xd2, 0x1f, 0x3e, 0xf8, 0xb2, 0xc4, 0x3e, 
0xfe, 0xf8, 0x2c, 0x3e, 0x40, 0x72, 0x78, 0x3c, 0x12, 0x0a, 0x5a, 0xbe, 
0x00, 0x89, 0x6e, 0xbb, 0x4a, 0xf6, 0x2e, 0x3e, 0x52, 0x06, 0x28, 0xbe, 
0xab, 0x6e, 0xaf, 0xbe, 0xfa, 0x0b, 0xbd, 0xbe, 0xe4, 0xf4, 0xdd, 0x3d, 
0x67, 0x25, 0x40, 0xbe, 0x97, 0x49, 0xd0, 0x3e, 0x44, 0x08, 0xa1, 0x3d, 
0x36, 0x81, 0x6d, 0x3e, 0xb6, 0xff, 0x58, 0xbe, 0xa1, 0x40, 0x87, 0xbe, 
0x36, 0xa3, 0x0d, 0xbe, 0xe8, 0xc6, 0x12, 0xbd, 0x0d, 0x94, 0x62, 0x3e, 
0xd7, 0x78, 0x86, 0x3d, 0xab, 0xed, 0xfd, 0x3c, 0x20, 0x7d, 0xc0, 0x3e, 
0x42, 0xdd, 0x84, 0x3e, 0xb9, 0x87, 0xbc, 0x3e, 0xfb, 0x0b, 0xd7, 0x3e, 
0x50, 0x2f, 0x34, 0x3d, 0x0f, 0x91, 0x86, 0xbe, 0xe8, 0xf9, 0x3c, 0xbf, 
0xad, 0xa3, 0x01, 0x3f, 0x0c, 0x72, 0x56, 0xbd, 0x38, 0x6a, 0x4c, 0xbd, 
0x1a, 0x5b, 0x3a, 0x3e, 0x66, 0x8e, 0x28, 0xbe, 0xed, 0xff, 0xd9, 0xbe, 
0xb7, 0x88, 0x40, 0xbc, 0xce, 0x47, 0x84, 0x3e, 0xa8, 0xc4, 0xd8, 0x3c, 
0xab, 0x53, 0xcd, 0xbe, 0x04, 0xd3, 0x42, 0xbd, 0xdf, 0x0c, 0xac, 0xbe, 
0x97, 0x4c, 0xb6, 0x3e, 0x6d, 0xdd, 0xb7, 0x3e, 0x3e, 0xa4, 0x5e, 0x3d, 
0x08, 0x59, 0xb8, 0x3e, 0x15, 0x56, 0x94, 0xbe, 0xb7, 0x9d, 0xaf, 0x3d, 
0xa4, 0xfe, 0xc3, 0x3d, 0xb5, 0xf2, 0x6c, 0xbd, 0xce, 0xfb, 0x97, 0xbe, 
0x12, 0x24, 0xaf, 0x3e, 0x4f, 0x61, 0x1d, 0x3e, 0x49, 0x13, 0xec, 0x3d, 
0x84, 0xfc, 0xe7, 0x3e, 0x57, 0x23, 0xa5, 0x3d, 0x22, 0x2d, 0x7f, 0x3e, 
0x45, 0x85, 0xef, 0xbd, 0xa5, 0x2d, 0xf7, 0xbe, 0x1e, 0x5f, 0xbb, 0xbe, 
0x0c, 0xed, 0x94, 0x3e, 0x80, 0x9e, 0x6f, 0xbf, 0x86, 0x6f, 0xaf, 0x3c, 
0xb7, 0xce, 0x4c, 0xbe, 0x58, 0xed, 0x59, 0xbd, 0xdd, 0xc8, 0x4a, 0xbe, 
0xbf, 0x55, 0x1c, 0x3e, 0x1e, 0xd9, 0x39, 0xbe, 0x78, 0x13, 0xf3, 0xbf, 
0x2a, 0x00, 0xc4, 0x3d, 0x56, 0xed, 0x22, 0x3e, 0x24, 0x38, 0xb6, 0xbe, 
0x2b, 0x60, 0x2a, 0xbe, 0x11, 0x56, 0xf0, 0xbe, 0xed, 0x93, 0x1e, 0xc0, 
0xef, 0x13, 0xb3, 0xbe, 0xd1, 0xf8, 0x2c, 0xbd, 0xdf, 0xfe, 0xce, 0xbe, 
0x1e, 0xbe, 0xbd, 0x3e, 0x3e, 0x61, 0x36, 0xbf, 0xed, 0x65, 0xce, 0x3e, 
0xc3, 0xdb, 0x67, 0x3e, 0xcb, 0x90, 0x83, 0xbe, 0x7c, 0xbf, 0x80, 0xbf, 
0x1c, 0x3d, 0x10, 0xbf, 0x73, 0xb6, 0xb9, 0xbe, 0x3f, 0xc9, 0xda, 0xbe, 
0x30, 0x9b, 0x31, 0xbe, 0x1e, 0xb2, 0x08, 0xbf, 0x5c, 0xa3, 0x38, 0x3e, 
0xde, 0xa7, 0x12, 0x3f, 0x77, 0xd2, 0xba, 0x3e, 0x9a, 0x6b, 0xaf, 0x3e, 
0x2d, 0x06, 0xf6, 0xbe, 0xe9, 0xdb, 0x12, 0x3e, 0x28, 0xc4, 0xbf, 0x3f, 
0x06, 0x71, 0x12, 0x3e, 0x3b, 0xbf, 0xe2, 0xbe, 0xe4, 0x91, 0x07, 0xbe, 
0x0f, 0xd7, 0x42, 0xbf, 0x8b, 0xa0, 0xbc, 0x3e, 0xc3, 0xa9, 0x49, 0x3e, 
0xd2, 0x08, 0xd8, 0x3d, 0x7b, 0x61, 0xc7, 0x3d, 0x16, 0x52, 0x95, 0x3e, 
0x64, 0xa8, 0xff, 0x3d, 0xbe, 0x0e, 0x69, 0x3e, 0xed, 0x2a, 0xbe, 0x3e, 
0x9b, 0xb8, 0x15, 0x3f, 0xfc, 0x3c, 0xf7, 0x3d, 0x9d, 0xba, 0xca, 0x3e, 
0xb9, 0x86, 0x3f, 0x3f, 0x5b, 0x60, 0xb4, 0x3e, 0x34, 0x10, 0xcf, 0x3b, 
0x0b, 0xf1, 0xde, 0xbd, 0x33, 0x64, 0xfe, 0xbe, 0xbc, 0x6f, 0x65, 0x3e, 
0xdc, 0x36, 0x30, 0xbe, 0x84, 0xda, 0xd3, 0xbd, 0x0e, 0xa8, 0xd0, 0xbe, 
0x9a, 0x78, 0x71, 0xbe, 0x96, 0x68, 0xac, 0x3d, 0xdb, 0x3c, 0xce, 0xbe, 
0x15, 0xaa, 0xdc, 0x3e, 0xf4, 0x97, 0x68, 0x3e, 0x0f, 0x9a, 0x23, 0x3e, 
0x70, 0x7e, 0x51, 0xbe, 0xd6, 0xab, 0x48, 0x3e, 0xd0, 0x65, 0x85, 0xbd, 
0x01, 0xe1, 0x99, 0xbe, 0xdb, 0xa4, 0xb0, 0x3e, 0x0c, 0xb1, 0xa2, 0x3d, 
0x77, 0xf6, 0x91, 0x3c, 0xed, 0xa6, 0x15, 0x3d, 0xcf, 0x2c, 0xc0, 0x3e, 
0xb0, 0x84, 0x8f, 0x3d, 0x53, 0xea, 0xa4, 0x3e, 0x5f, 0x4e, 0x16, 0x3e, 
0x8f, 0xf0, 0x9e, 0x3e, 0xac, 0x70, 0xa0, 0x3d, 0x2c, 0xe0, 0x11, 0xbf, 
0xfa, 0x86, 0xf7, 0xbe, 0xb5, 0x06, 0xa9, 0xbe, 0x40, 0x8f, 0x57, 0xbf, 
0xc9, 0xde, 0x71, 0xbe, 0x91, 0xf8, 0xd3, 0x3e, 0x36, 0xce, 0xb1, 0xbd, 
0x11, 0x1a, 0x0a, 0x3f, 0x00, 0x00, 0x06, 0x00, 0x08, 0x00, 0x04, 0x00, 
0x06, 0x00, 0x00, 0x00, 0x04, 0x00, 0x00, 0x00, 0x80, 0x00, 0x00, 0x00, 
0x10, 0xc6, 0x80, 0xbd, 0xe0, 0xe7, 0x16, 0xbd, 0xa8, 0x3e, 0xcf, 0x3e, 
0x82, 0x12, 0xd9, 0xbe, 0xba, 0xe9, 0xad, 0x3e, 0xde, 0x18, 0x3a, 0xbf, 
0xec, 0x2b, 0x3f, 0xbd, 0xf0, 0x2b, 0x55, 0xbe, 0x2d, 0xfd, 0x8c, 0x3c, 
0x2f, 0x4f, 0x89, 0xbe, 0xb0, 0x3b, 0xec, 0xbd, 0x35, 0xf6, 0x06, 0x3e, 
0x7c, 0xfd, 0x65, 0x3f, 0xc1, 0xdb, 0x08, 0x3f, 0xaa, 0xc0, 0x0f, 0x3e, 
0x82, 0x01, 0x41, 0xbf, 0x2a, 0x38, 0x11, 0xbe, 0xa9, 0xdd, 0xe1, 0x3e, 
0x13, 0xf5, 0x02, 0x3f, 0x11, 0xb4, 0xcd, 0x3e, 0x7b, 0xdf, 0x31, 0x3f, 
0x0a, 0x21, 0xdb, 0x3e, 0x63, 0x9f, 0x8f, 0xbf, 0x60, 0x69, 0x63, 0x3d, 
0x6c, 0x63, 0x32, 0x3f, 0x54, 0xbd, 0x52, 0xbe, 0x50, 0x8e, 0xd0, 0x3e, 
0x21, 0x27, 0xf8, 0xbf, 0x26, 0x18, 0x16, 0xbf, 0xa0, 0xa6, 0x1a, 0x3e, 
0xc6, 0x9d, 0xc4, 0xbe, 0x53, 0xda, 0x69, 0xbe, 0x38, 0xfb, 0xff, 0xff, 
0x3c, 0xfb, 0xff, 0xff, 0x0f, 0x00, 0x00, 0x00, 0x4d, 0x4c, 0x49, 0x52, 
0x20, 0x43, 0x6f, 0x6e, 0x76, 0x65, 0x72, 0x74, 0x65, 0x64, 0x2e, 0x00, 
0x01, 0x00, 0x00, 0x00, 0x14, 0x00, 0x00, 0x00, 0x00, 0x00, 0x0e, 0x00, 
0x18, 0x00, 0x14, 0x00, 0x10, 0x00, 0x0c, 0x00, 0x08, 0x00, 0x04, 0x00, 
0x0e, 0x00, 0x00, 0x00, 0x14, 0x00, 0x00, 0x00, 0x1c, 0x00, 0x00, 0x00, 
0xd8, 0x00, 0x00, 0x00, 0xdc, 0x00, 0x00, 0x00, 0xe0, 0x00, 0x00, 0x00, 
0x04, 0x00, 0x00, 0x00, 0x6d, 0x61, 0x69, 0x6e, 0x00, 0x00, 0x00, 0x00, 
0x03, 0x00, 0x00, 0x00, 0x80, 0x00, 0x00, 0x00, 0x38, 0x00, 0x00, 0x00, 
0x04, 0x00, 0x00, 0x00, 0x9a, 0xff, 0xff, 0xff, 0x10, 0x00, 0x00, 0x00, 
0x00, 0x00, 0x00, 0x08, 0x0c, 0x00, 0x00, 0x00, 0x10, 0x00, 0x00, 0x00, 
0xb4, 0xfb, 0xff, 0xff, 0x01, 0x00, 0x00, 0x00, 0x09, 0x00, 0x00, 0x00, 
0x03, 0x00, 0x00, 0x00, 0x08, 0x00, 0x00, 0x00, 0x01, 0x00, 0x00, 0x00, 
0x03, 0x00, 0x00, 0x00, 0xca, 0xff, 0xff, 0xff, 0x10, 0x00, 0x00, 0x00, 
0x00, 0x00, 0x00, 0x08, 0x10, 0x00, 0x00, 0x00, 0x14, 0x00, 0x00, 0x00, 
0xba, 0xff, 0xff, 0xff, 0x00, 0x00, 0x00, 0x01, 0x01, 0x00, 0x00, 0x00, 
0x08, 0x00, 0x00, 0x00, 0x03, 0x00, 0x00, 0x00, 0x07, 0x00, 0x00, 0x00, 
0x02, 0x00, 0x00, 0x00, 0x04, 0x00, 0x00, 0x00, 0x00, 0x00, 0x0e, 0x00, 
0x16, 0x00, 0x00, 0x00, 0x10, 0x00, 0x0c, 0x00, 0x0b, 0x00, 0x04, 0x00, 
0x0e, 0x00, 0x00, 0x00, 0x18, 0x00, 0x00, 0x00, 0x00, 0x00, 0x00, 0x08, 
0x18, 0x00, 0x00, 0x00, 0x1c, 0x00, 0x00, 0x00, 0x00, 0x00, 0x06, 0x00, 
0x08, 0x00, 0x07, 0x00, 0x06, 0x00, 0x00, 0x00, 0x00, 0x00, 0x00, 0x01, 
0x01, 0x00, 0x00, 0x00, 0x07, 0x00, 0x00, 0x00, 0x03, 0x00, 0x00, 0x00, 
0x00, 0x00, 0x00, 0x00, 0x06, 0x00, 0x00, 0x00, 0x05, 0x00, 0x00, 0x00, 
0x01, 0x00, 0x00, 0x00, 0x09, 0x00, 0x00, 0x00, 0x01, 0x00, 0x00, 0x00, 
0x00, 0x00, 0x00, 0x00, 0x0a, 0x00, 0x00, 0x00, 0x74, 0x03, 0x00, 0x00, 
0x1c, 0x03, 0x00, 0x00, 0xc4, 0x02, 0x00, 0x00, 0x88, 0x02, 0x00, 0x00, 
0x4c, 0x02, 0x00, 0x00, 0xf0, 0x01, 0x00, 0x00, 0xa0, 0x01, 0x00, 0x00, 
0x00, 0x01, 0x00, 0x00, 0x60, 0x00, 0x00, 0x00, 0x04, 0x00, 0x00, 0x00, 
0xca, 0xfc, 0xff, 0xff, 0x00, 0x00, 0x00, 0x01, 0x14, 0x00, 0x00, 0x00, 
0x1c, 0x00, 0x00, 0x00, 0x1c, 0x00, 0x00, 0x00, 0x0a, 0x00, 0x00, 0x00, 
0x34, 0x00, 0x00, 0x00, 0x02, 0x00, 0x00, 0x00, 0xff, 0xff, 0xff, 0xff, 
0x02, 0x00, 0x00, 0x00, 0xb4, 0xfc, 0xff, 0xff, 0x1b, 0x00, 0x00, 0x00, 
0x53, 0x74, 0x61, 0x74, 0x65, 0x66, 0x75, 0x6c, 0x50, 0x61, 0x72, 0x74, 
0x69, 0x74, 0x69, 0x6f, 0x6e, 0x65, 0x64, 0x43, 0x61, 0x6c, 0x6c, 0x5f, 
0x31, 0x3a, 0x30, 0x00, 0x02, 0x00, 0x00, 0x00, 0x01, 0x00, 0x00, 0x00, 
0x02, 0x00, 0x00, 0x00, 0x22, 0xfd, 0xff, 0xff, 0x00, 0x00, 0x00, 0x01, 
0x14, 0x00, 0x00, 0x00, 0x1c, 0x00, 0x00, 0x00, 0x1c, 0x00, 0x00, 0x00, 
0x09, 0x00, 0x00, 0x00, 0x78, 0x00, 0x00, 0x00, 0x02, 0x00, 0x00, 0x00, 
0xff, 0xff, 0xff, 0xff, 0x10, 0x00, 0x00, 0x00, 0x0c, 0xfd, 0xff, 0xff, 
0x5e, 0x00, 0x00, 0x00, 0x73, 0x65, 0x71, 0x75, 0x65, 0x6e, 0x74, 0x69, 
0x61, 0x6c, 0x5f, 0x32, 0x5f, 0x31, 0x2f, 0x64, 0x65, 0x6e, 0x73, 0x65, 
0x5f, 0x37, 0x5f, 0x31, 0x2f, 0x4d, 0x61, 0x74, 0x4d, 0x75, 0x6c, 0x3b, 
0x73, 0x65, 0x71, 0x75, 0x65, 0x6e, 0x74, 0x69, 0x61, 0x6c, 0x5f, 0x32, 
0x5f, 0x31, 0x2f, 0x64, 0x65, 0x6e, 0x73, 0x65, 0x5f, 0x37, 0x5f, 0x31, 
0x2f, 0x52, 0x65, 0x6c, 0x75, 0x3b, 0x73, 0x65, 0x71, 0x75, 0x65, 0x6e, 
0x74, 0x69, 0x61, 0x6c, 0x5f, 0x32, 0x5f, 0x31, 0x2f, 0x64, 0x65, 0x6e, 
0x73, 0x65, 0x5f, 0x37, 0x5f, 0x31, 0x2f, 0x42, 0x69, 0x61, 0x73, 0x41, 
0x64, 0x64, 0x00, 0x00, 0x02, 0x00, 0x00, 0x00, 0x01, 0x00, 0x00, 0x00, 
0x10, 0x00, 0x00, 0x00, 0xbe, 0xfd, 0xff, 0xff, 0x00, 0x00, 0x00, 0x01, 
0x14, 0x00, 0x00, 0x00, 0x1c, 0x00, 0x00, 0x00, 0x1c, 0x00, 0x00, 0x00, 
0x08, 0x00, 0x00, 0x00, 0x78, 0x00, 0x00, 0x00, 0x02, 0x00, 0x00, 0x00, 
0xff, 0xff, 0xff, 0xff, 0x10, 0x00, 0x00, 0x00, 0xa8, 0xfd, 0xff, 0xff, 
0x5e, 0x00, 0x00, 0x00, 0x73, 0x65, 0x71, 0x75, 0x65, 0x6e, 0x74, 0x69, 
0x61, 0x6c, 0x5f, 0x32, 0x5f, 0x31, 0x2f, 0x64, 0x65, 0x6e, 0x73, 0x65, 
0x5f, 0x36, 0x5f, 0x31, 0x2f, 0x4d, 0x61, 0x74, 0x4d, 0x75, 0x6c, 0x3b, 
0x73, 0x65, 0x71, 0x75, 0x65, 0x6e, 0x74, 0x69, 0x61, 0x6c, 0x5f, 0x32, 
0x5f, 0x31, 0x2f, 0x64, 0x65, 0x6e, 0x73, 0x65, 0x5f, 0x36, 0x5f, 0x31, 
0x2f, 0x52, 0x65, 0x6c, 0x75, 0x3b, 0x73, 0x65, 0x71, 0x75, 0x65, 0x6e, 
0x74, 0x69, 0x61, 0x6c, 0x5f, 0x32, 0x5f, 0x31, 0x2f, 0x64, 0x65, 0x6e, 
0x73, 0x65, 0x5f, 0x36, 0x5f, 0x31, 0x2f, 0x42, 0x69, 0x61, 0x73, 0x41, 
0x64, 0x64, 0x00, 0x00, 0x02, 0x00, 0x00, 0x00, 0x01, 0x00, 0x00, 0x00, 
0x10, 0x00, 0x00, 0x00, 0xae, 0xfe, 0xff, 0xff, 0x00, 0x00, 0x00, 0x01, 
0x10, 0x00, 0x00, 0x00, 0x10, 0x00, 0x00, 0x00, 0x07, 0x00, 0x00, 0x00, 
0x2c, 0x00, 0x00, 0x00, 0x34, 0xfe, 0xff, 0xff, 0x1f, 0x00, 0x00, 0x00, 
0x73, 0x65, 0x71, 0x75, 0x65, 0x6e, 0x74, 0x69, 0x61, 0x6c, 0x5f, 0x32, 
0x5f, 0x31, 0x2f, 0x64, 0x65, 0x6e, 0x73, 0x65, 0x5f, 0x36, 0x5f, 0x31, 
0x2f, 0x4d, 0x61, 0x74, 0x4d, 0x75, 0x6c, 0x00, 0x02, 0x00, 0x00, 0x00, 
0x10, 0x00, 0x00, 0x00, 0x04, 0x00, 0x00, 0x00, 0xfa, 0xfe, 0xff, 0xff, 
0x00, 0x00, 0x00, 0x01, 0x10, 0x00, 0x00, 0x00, 0x10, 0x00, 0x00, 0x00, 
0x06, 0x00, 0x00, 0x00, 0x3c, 0x00, 0x00, 0x00, 0x80, 0xfe, 0xff, 0xff, 
0x2f, 0x00, 0x00, 0x00, 0x73, 0x65, 0x71, 0x75, 0x65, 0x6e, 0x74, 0x69, 
0x61, 0x6c, 0x5f, 0x32, 0x5f, 0x31, 0x2f, 0x64, 0x65, 0x6e, 0x73, 0x65, 
0x5f, 0x36, 0x5f, 0x31, 0x2f, 0x42, 0x69, 0x61, 0x73, 0x41, 0x64, 0x64, 
0x2f, 0x52, 0x65, 0x61, 0x64, 0x56, 0x61, 0x72, 0x69, 0x61, 0x62, 0x6c, 
0x65, 0x4f, 0x70, 0x00, 0x01, 0x00, 0x00, 0x00, 0x10, 0x00, 0x00, 0x00, 
0x52, 0xff, 0xff, 0xff, 0x00, 0x00, 0x00, 0x01, 0x10, 0x00, 0x00, 0x00, 
0x10, 0x00, 0x00, 0x00, 0x05, 0x00, 0x00, 0x00, 0x1c, 0x00, 0x00, 0x00, 
0xd8, 0xfe, 0xff, 0xff, 0x0f, 0x00, 0x00, 0x00, 0x61, 0x72, 0x69, 0x74, 
0x68, 0x2e, 0x63, 0x6f, 0x6e, 0x73, 0x74, 0x61, 0x6e, 0x74, 0x33, 0x00, 
0x01, 0x00, 0x00, 0x00, 0x10, 0x00, 0x00, 0x00, 0x8a, 0xff, 0xff, 0xff, 
0x00, 0x00, 0x00, 0x01, 0x10, 0x00, 0x00, 0x00, 0x10, 0x00, 0x00, 0x00, 
0x04, 0x00, 0x00, 0x00, 0x1c, 0x00, 0x00, 0x00, 0x10, 0xff, 0xff, 0xff, 
0x0f, 0x00, 0x00, 0x00, 0x61, 0x72, 0x69, 0x74, 0x68, 0x2e, 0x63, 0x6f, 
0x6e, 0x73, 0x74, 0x61, 0x6e, 0x74, 0x32, 0x00, 0x01, 0x00, 0x00, 0x00, 
0x02, 0x00, 0x00, 0x00, 0xc2, 0xff, 0xff, 0xff, 0x00, 0x00, 0x00, 0x01, 
0x10, 0x00, 0x00, 0x00, 0x10, 0x00, 0x00, 0x00, 0x03, 0x00, 0x00, 0x00, 
0x1c, 0x00, 0x00, 0x00, 0x48, 0xff, 0xff, 0xff, 0x0f, 0x00, 0x00, 0x00, 
0x61, 0x72, 0x69, 0x74, 0x68, 0x2e, 0x63, 0x6f, 0x6e, 0x73, 0x74, 0x61, 
0x6e, 0x74, 0x31, 0x00, 0x02, 0x00, 0x00, 0x00, 0x10, 0x00, 0x00, 0x00, 
0x10, 0x00, 0x00, 0x00, 0x00, 0x00, 0x16, 0x00, 0x18, 0x00, 0x14, 0x00, 
0x00, 0x00, 0x10, 0x00, 0x0c, 0x00, 0x08, 0x00, 0x00, 0x00, 0x00, 0x00, 
0x00, 0x00, 0x07, 0x00, 0x16, 0x00, 0x00, 0x00, 0x00, 0x00, 0x00, 0x01, 
0x10, 0x00, 0x00, 0x00, 0x10, 0x00, 0x00, 0x00, 0x02, 0x00, 0x00, 0x00, 
0x1c, 0x00, 0x00, 0x00, 0x9c, 0xff, 0xff, 0xff, 0x0e, 0x00, 0x00, 0x00, 
0x61, 0x72, 0x69, 0x74, 0x68, 0x2e, 0x63, 0x6f, 0x6e, 0x73, 0x74, 0x61, 
0x6e, 0x74, 0x00, 0x00, 0x02, 0x00, 0x00, 0x00, 0x02, 0x00, 0x00, 0x00, 
0x10, 0x00, 0x00, 0x00, 0x00, 0x00, 0x16, 0x00, 0x1c, 0x00, 0x18, 0x00, 
0x00, 0x00, 0x14, 0x00, 0x10, 0x00, 0x0c, 0x00, 0x00, 0x00, 0x00, 0x00, 
0x08, 0x00, 0x07, 0x00, 0x16, 0x00, 0x00, 0x00, 0x00, 0x00, 0x00, 0x01, 
0x14, 0x00, 0x00, 0x00, 0x20, 0x00, 0x00, 0x00, 0x20, 0x00, 0x00, 0x00, 
0x01, 0x00, 0x00, 0x00, 0x40, 0x00, 0x00, 0x00, 0x02, 0x00, 0x00, 0x00, 
0xff, 0xff, 0xff, 0xff, 0x04, 0x00, 0x00, 0x00, 0x04, 0x00, 0x04, 0x00, 
0x04, 0x00, 0x00, 0x00, 0x20, 0x00, 0x00, 0x00, 0x73, 0x65, 0x72, 0x76, 
0x69, 0x6e, 0x67, 0x5f, 0x64, 0x65, 0x66, 0x61, 0x75, 0x6c, 0x74, 0x5f, 
0x6b, 0x65, 0x72, 0x61, 0x73, 0x5f, 0x74, 0x65, 0x6e, 0x73, 0x6f, 0x72, 
0x5f, 0x38, 0x3a, 0x30, 0x00, 0x00, 0x00, 0x00, 0x02, 0x00, 0x00, 0x00, 
0x01, 0x00, 0x00, 0x00, 0x04, 0x00, 0x00, 0x00, 0x01, 0x00, 0x00, 0x00, 
0x10, 0x00, 0x00, 0x00, 0x0c, 0x00, 0x0c, 0x00, 0x0b, 0x00, 0x00, 0x00, 
0x00, 0x00, 0x04, 0x00, 0x0c, 0x00, 0x00, 0x00, 0x09, 0x00, 0x00, 0x00, 
0x00, 0x00, 0x00, 0x09, 
};

